<pad>	0
<unk>	0
[city]	0
[airline]	0
[airport_code]	0
[airport_name]	0
[state]	0
[date]	0
[time]	0
[num]	0
▁f	-0
▁t	-1
li	-2
▁a	-3
▁to	-4
ro	-5
rom	-6
▁from	-7
gh	-8
▁fli	-9
ght	-10
▁flight	-11
▁i	-12
▁th	-13
▁flights	-14
▁w	-15
▁the	-16
at	-17
on	-18
▁s	-19
re	-20
▁m	-21
▁wh	-22
▁on	-23
nd	-24
ow	-25
st	-26
▁what	-27
▁me	-28
ea	-29
how	-30
▁in	-31
▁show	-32
ve	-33
▁li	-34
in	-35
▁c	-36
▁d	-37
ing	-38
lea	-39
or	-40
▁and	-41
▁b	-42
ll	-43
an	-44
ou	-45
ri	-46
▁is	-47
▁g	-48
ee	-49
ke	-50
▁all	-51
▁be	-52
es	-53
▁lea	-54
▁n	-55
est	-56
la	-57
▁like	-58
ving	-59
rou	-60
round	-61
er	-62
▁are	-63
▁o	-64
are	-65
▁list	-66
▁fare	-67
▁p	-68
ion	-69
▁of	-70
▁ar	-71
▁'	-72
ir	-73
ly	-74
ation	-75
▁arri	-76
op	-77
▁air	-78
tw	-79
een	-80
tween	-81
▁between	-82
▁that	-83
▁do	-84
se	-85
ld	-86
ould	-87
▁fly	-88
ort	-89
▁leaving	-90
port	-91
ch	-92
ft	-93
lease	-94
▁please	-95
▁for	-96
▁would	-97
▁tr	-98
le	-99
it	-100
ss	-101
▁y	-102
▁h	-103
▁you	-104
▁there	-105
ai	-106
ay	-107
▁st	-108
ave	-109
ans	-110
▁trans	-111
ble	-112
▁transport	-113
fter	-114
▁ground	-115
▁after	-116
▁l	-117
rip	-118
lass	-119
▁trip	-120
▁class	-121
▁ch	-122
▁go	-123
eap	-124
▁cheap	-125
▁transportation	-126
▁co	-127
▁does	-128
▁cheapest	-129
ive	-130
▁stop	-131
ith	-132
eed	-133
▁need	-134
▁round	-135
vai	-136
lable	-137
▁avai	-138
▁available	-139
ar	-140
▁leave	-141
lin	-142
▁with	-143
▁arriving	-144
ore	-145
▁have	-146
fore	-147
▁airlin	-148
▁before	-149
▁arrive	-150
▁fares	-151
▁whi	-152
▁which	-153
ex	-154
ant	-155
▁want	-156
▁an	-157
▁way	-158
▁at	-159
▁give	-160
ind	-161
own	-162
▁ea	-163
▁non	-164
stop	-165
▁nonstop	-166
rli	-167
▁earli	-168
▁earliest	-169
▁how	-170
for	-171
form	-172
▁inform	-173
▁information	-174
▁ser	-175
▁re	-176
▁can	-177
▁airlines	-178
▁find	-179
ic	-180
art	-181
▁any	-182
▁de	-183
pe	-184
part	-185
▁depart	-186
▁lat	-187
ell	-188
ext	-189
ver	-190
▁next	-191
ct	-192
▁tell	-193
de	-194
out	-195
▁k	-196
▁or	-197
▁cost	-198
over	-199
▁serve	-200
al	-201
▁airport	-202
ownt	-203
▁downt	-204
▁downtown	-205
▁ex	-206
▁code	-207
▁latest	-208
ok	-209
▁u	-210
ook	-211
▁stopover	-212
cr	-213
aft	-214
ake	-215
craft	-216
▁aircraft	-217
▁ab	-218
ket	-219
▁tic	-220
▁ticket	-221
▁ty	-222
ed	-223
ess	-224
▁int	-225
▁than	-226
▁airline	-227
et	-228
ur	-229
▁going	-230
▁around	-231
▁e	-232
▁by	-233
any	-234
▁di	-235
▁la	-236
▁many	-237
▁about	-238
om	-239
ars	-240
▁get	-241
▁could	-242
llars	-243
▁mean	-244
▁trave	-245
▁dollars	-246
nt	-247
tur	-248
turn	-249
▁see	-250
▁return	-251
ns	-252
▁type	-253
pens	-254
pensive	-255
▁expensive	-256
ere	-257
vic	-258
▁mu	-259
▁leaves	-260
now	-261
▁book	-262
▁know	-263
▁much	-264
▁servic	-265
▁meal	-266
me	-267
vi	-268
ach	-269
lan	-270
▁use	-271
▁departing	-272
con	-273
▁cit	-274
▁low	-275
▁lowest	-276
▁travel	-277
aily	-278
▁into	-279
▁less	-280
▁daily	-281
▁service	-282
ric	-283
conom	-284
▁pric	-285
▁coach	-286
▁least	-287
▁econom	-288
um	-289
▁q	-290
sin	-291
▁economy	-292
th	-293
kay	-294
▁kind	-295
▁make	-296
▁okay	-297
▁used	-298
ak	-299
▁it	-300
▁con	-301
▁now	-302
▁take	-303
▁arrives	-304
im	-305
ne	-306
nect	-307
▁last	-308
▁connect	-309
ber	-310
▁num	-311
▁plan	-312
▁flying	-313
▁number	-314
ac	-315
▁bu	-316
▁day	-317
edu	-318
rect	-319
▁sch	-320
▁direct	-321
▁schedu	-322
pla	-323
▁look	-324
fa	-325
oss	-326
akfa	-327
ible	-328
▁bre	-329
▁poss	-330
akfast	-331
▁stops	-332
▁possible	-333
▁schedule	-334
▁breakfast	-335
▁ap	-336
imes	-337
rict	-338
▁rest	-339
▁times	-340
riction	-341
▁serves	-342
▁looking	-343
▁airports	-344
▁restriction	-345
as	-346
▁wi	-347
ther	-348
▁connecting	-349
ge	-350
ies	-351
ran	-352
▁us	-353
ping	-354
▁out	-355
range	-356
▁arrange	-357
▁stopping	-358
eek	-359
▁vi	-360
sted	-361
▁city	-362
▁goes	-363
▁week	-364
siness	-365
▁price	-366
erested	-367
▁served	-368
▁business	-369
▁interested	-370
inn	-371
mou	-372
▁al	-373
▁sh	-374
fare	-375
ntal	-376
▁car	-377
▁has	-378
▁via	-379
▁will	-380
▁other	-381
▁cities	-382
▁airfare	-383
ack	-384
ame	-385
and	-386
inner	-387
▁plane	-388
▁stand	-389
▁dinner	-390
▁returning	-391
so	-392
pre	-393
ment	-394
▁dis	-395
▁also	-396
▁your	-397
▁rental	-398
ain	-399
ure	-400
▁bo	-401
play	-402
▁som	-403
ments	-404
press	-405
▁back	-406
▁then	-407
mousin	-408
▁using	-409
▁prices	-410
▁display	-411
▁express	-412
▁limousin	-413
▁departure	-414
▁arrangements	-415
▁qx	-416
▁flies	-417
▁listing	-418
▁limousine	-419
all	-420
eat	-421
pes	-422
▁ag	-423
▁land	-424
▁late	-425
▁only	-426
▁same	-427
▁seat	-428
▁again	-429
▁types	-430
en	-431
ff	-432
des	-433
ong	-434
ost	-435
▁hi	-436
ither	-437
▁most	-438
▁either	-439
▁classes	-440
ap	-441
wo	-442
bre	-443
fer	-444
ity	-445
▁sm	-446
apac	-447
ling	-448
plan	-449
▁two	-450
brevi	-451
plain	-452
rough	-453
▁live	-454
▁some	-455
allest	-456
▁capac	-457
▁thank	-458
▁where	-459
▁should	-460
▁abbrevi	-461
▁airplan	-462
▁explain	-463
▁through	-464
▁tickets	-465
▁smallest	-466
▁abbreviation	-467
ce	-468
eop	-469
▁if	-470
▁my	-471
rovi	-472
▁lay	-473
eople	-474
▁makes	-475
▁provi	-476
▁people	-477
▁landing	-478
▁airplane	-479
▁capacity	-480
▁traveling	-481
un	-482
ate	-483
▁ri	-484
aking	-485
▁both	-486
▁long	-487
▁when	-488
ortest	-489
▁codes	-490
▁offer	-491
▁right	-492
▁layover	-493
▁provide	-494
▁seating	-495
▁shortest	-496
ax	-497
ig	-498
wh	-499
▁r	-500
ine	-501
off	-502
ose	-503
val	-504
eing	-505
unch	-506
▁com	-507
▁far	-508
where	-509
▁each	-510
▁lunch	-511
▁meals	-512
▁boeing	-513
▁planes	-514
▁arrival	-515
▁takeoff	-516
▁landings	-517
80	-518
qu	-519
erv	-520
▁no	-521
▁qo	-522
▁qw	-523
▁so	-524
ance	-525
igin	-526
nder	-527
serv	-528
ying	-529
▁but	-530
▁yes	-531
▁dist	-532
▁uses	-533
▁start	-534
▁their	-535
▁under	-536
▁coming	-537
▁making	-538
▁origin	-539
▁reserv	-540
▁trying	-541
▁numbers	-542
▁anywhere	-543
▁distance	-544
▁takeoffs	-545
▁connection	-546
▁reservation	-547
10	-548
cl	-549
el	-550
▁j	-551
clu	-552
elp	-553
eti	-554
▁cl	-555
ding	-556
ello	-557
imum	-558
▁des	-559
▁dur	-560
ating	-561
etime	-562
ffere	-563
▁days	-564
▁help	-565
▁more	-566
▁name	-567
▁over	-568
▁costs	-569
▁hello	-570
▁inclu	-571
▁later	-572
▁these	-573
▁during	-574
▁differe	-575
▁serving	-576
▁provided	-577
▁sometime	-578
▁starting	-579
▁stopovers	-580
▁departures	-581
28	-582
57	-583
ab	-584
ad	-585
be	-586
ng	-587
sh	-588
ada	-589
axi	-590
ays	-591
bop	-592
cri	-593
ers	-594
let	-595
oic	-596
rop	-597
tal	-598
▁dc	-599
▁ll	-600
▁yn	-601
asse	-602
ates	-603
days	-604
fine	-605
rift	-606
▁ano	-607
▁fit	-608
▁let	-609
▁max	-610
▁ten	-611
▁tur	-612
cribe	-613
estin	-614
mount	-615
ngers	-616
oices	-617
quest	-618
▁area	-619
▁repe	-620
▁taxi	-621
▁wish	-622
boprop	-623
▁close	-624
▁kinds	-625
▁passe	-626
▁rates	-627
▁reach	-628
▁seats	-629
▁those	-630
▁total	-631
▁trips	-632
▁amount	-633
▁canada	-634
▁define	-635
▁destin	-636
▁thrift	-637
questing	-638
▁another	-639
▁booking	-640
▁choices	-641
▁departs	-642
▁maximum	-643
▁meaning	-644
▁rentals	-645
▁describe	-646
▁weekdays	-647
▁turboprop	-648
▁passengers	-649
▁requesting	-650
▁connections	-651
▁destination	-652
▁originating	-653
am	-654
bo	-655
mo	-656
oc	-657
ry	-658
te	-659
▁7	-660
aba	-661
ard	-662
ary	-663
ctu	-664
ear	-665
end	-666
ill	-667
les	-668
nce	-669
oll	-670
per	-671
pro	-672
ust	-673
xim	-674
▁qu	-675
▁sn	-676
▁we	-677
ally	-678
ames	-679
ated	-680
cont	-681
ends	-682
iner	-683
ning	-684
onth	-685
orry	-686
ound	-687
reat	-688
very	-689
ward	-690
▁beg	-691
▁buy	-692
▁dat	-693
▁equ	-694
▁fri	-695
▁hea	-696
▁loc	-697
▁pre	-698
▁say	-699
▁too	-700
abase	-701
ately	-702
ghest	-703
ollow	-704
route	-705
▁actu	-706
▁cars	-707
▁just	-708
▁limo	-709
▁near	-710
▁rent	-711
▁soon	-712
▁they	-713
proxim	-714
▁along	-715
▁bound	-716
▁carri	-717
▁great	-718
▁lives	-719
▁month	-720
▁names	-721
▁snack	-722
▁sorry	-723
▁still	-724
▁train	-725
contine	-726
inerary	-727
▁follow	-728
▁prefer	-729
▁repeat	-730
▁stands	-731
▁taking	-732
▁within	-733
▁friends	-734
▁heading	-735
▁highest	-736
▁include	-737
▁located	-738
▁without	-739
▁actually	-740
▁approxim	-741
▁database	-742
▁reaching	-743
▁serviced	-744
▁services	-745
▁different	-746
▁following	-747
▁itinerary	-748
▁originate	-749
▁schedules	-750
continental	-751
▁difference	-752
▁reservations	-753
▁restrictions	-754
▁abbreviations	-755
▁approximately	-756
31	-757
dy	-758
ef	-759
fy	-760
ip	-761
is	-762
ls	-763
ni	-764
os	-765
pt	-766
rg	-767
rs	-768
si	-769
up	-770
ut	-771
wn	-772
ye	-773
ym	-774
ali	-775
cer	-776
cou	-777
der	-778
efu	-779
gar	-780
ign	-781
ins	-782
inu	-783
lly	-784
lse	-785
mer	-786
old	-787
ome	-788
pan	-789
rai	-790
sit	-791
tis	-792
uns	-793
▁72	-794
▁73	-795
▁ad	-796
▁br	-797
▁en	-798
▁fn	-799
▁ha	-800
▁ls	-801
▁sa	-802
▁sd	-803
▁up	-804
▁ve	-805
ably	-806
body	-807
bols	-808
inal	-809
ions	-810
long	-811
nted	-812
ntly	-813
ours	-814
tinu	-815
urre	-816
▁cal	-817
▁eye	-818
▁got	-819
▁hop	-820
▁jet	-821
▁min	-822
▁off	-823
▁opt	-824
▁put	-825
▁red	-826
▁run	-827
▁sum	-828
▁sup	-829
▁sym	-830
▁vic	-831
▁who	-832
after	-833
alify	-834
aying	-835
count	-836
ingle	-837
inity	-838
ities	-839
night	-840
osest	-841
prese	-842
rgest	-843
sides	-844
thing	-845
tises	-846
verse	-847
wards	-848
▁able	-849
▁come	-850
▁date	-851
▁else	-852
▁fine	-853
▁gets	-854
▁here	-855
▁hold	-856
▁home	-857
▁must	-858
▁once	-859
▁oper	-860
▁rate	-861
▁runs	-862
▁them	-863
▁town	-864
▁very	-865
efully	-866
estion	-867
ignate	-868
inning	-869
ipment	-870
panies	-871
raight	-872
▁adver	-873
▁being	-874
▁bring	-875
▁cover	-876
▁curre	-877
▁doesn	-878
▁equal	-879
▁every	-880
▁final	-881
▁hours	-882
▁lands	-883
▁order	-884
▁regar	-885
▁route	-886
▁thing	-887
▁visit	-888
▁wants	-889
▁while	-890
cerning	-891
tinuing	-892
▁begins	-893
▁belong	-894
▁having	-895
▁kindly	-896
▁laying	-897
▁listed	-898
▁offers	-899
▁priced	-900
▁single	-901
▁summer	-902
▁supper	-903
▁thanks	-904
▁toward	-905
▁wanted	-906
▁besides	-907
▁calling	-908
▁carried	-909
▁carries	-910
▁closest	-911
▁earlier	-912
▁enroute	-913
▁grounds	-914
▁largest	-915
▁lastest	-916
▁longest	-917
▁minimum	-918
▁options	-919
▁qualify	-920
▁reaches	-921
▁represe	-922
▁reverse	-923
▁staying	-924
▁symbols	-925
▁airfares	-926
▁anything	-927
▁arrivals	-928
▁connects	-929
▁directly	-930
▁discount	-931
▁economic	-932
▁greatest	-933
▁includes	-934
▁listings	-935
▁nonstops	-936
▁planning	-937
▁provides	-938
▁question	-939
▁somebody	-940
▁straight	-941
▁vicinity	-942
▁airplanes	-943
▁beginning	-944
▁companies	-945
▁currently	-946
▁designate	-947
▁equipment	-948
▁hopefully	-949
▁including	-950
▁operation	-951
▁overnight	-952
▁regarding	-953
▁repeating	-954
▁scheduled	-955
▁advertises	-956
▁afterwards	-957
▁capacities	-958
▁concerning	-959
▁continuing	-960
▁everywhere	-961
▁limousines	-962
▁preferably	-963
▁thereafter	-964
▁represented	-965
72	-966
73	-967
af	-968
ag	-969
av	-970
ba	-971
bb	-972
br	-973
bu	-974
by	-975
ca	-976
ci	-977
cu	-978
da	-979
dc	-980
di	-981
dl	-982
do	-983
ds	-984
du	-985
dv	-986
ec	-987
eg	-988
ei	-989
ek	-990
em	-991
eo	-992
ep	-993
eq	-994
ev	-995
ey	-996
fi	-997
fl	-998
fn	-999
bl	-1000
ck	-1001
co	-1002
eb	-1003
fe	-1004
fo	-1005
fr	-1006
fs	-1007
fu	-1008
ga	-1009
gi	-1010
gl	-1011
gn	-1012
go	-1013
gr	-1014
gs	-1015
ha	-1016
he	-1017
hi	-1018
ho	-1019
hr	-1020
ht	-1021
ia	-1022
ib	-1023
id	-1024
ie	-1025
if	-1026
ik	-1027
il	-1028
io	-1029
iv	-1030
je	-1031
ju	-1032
ka	-1033
kd	-1034
kf	-1035
ki	-1036
kn	-1037
ks	-1038
lo	-1039
lp	-1040
lu	-1041
ma	-1042
mb	-1043
mi	-1044
mm	-1045
mp	-1046
mu	-1047
my	-1048
na	-1049
nc	-1050
nf	-1051
nk	-1052
nl	-1053
nn	-1054
no	-1055
nr	-1056
nu	-1057
ny	-1058
oa	-1059
od	-1060
oe	-1061
of	-1062
oi	-1063
ol	-1064
oo	-1065
ot	-1066
ov	-1067
ox	-1068
pa	-1069
pi	-1070
pl	-1071
pm	-1072
po	-1073
pp	-1074
pr	-1075
ps	-1076
pu	-1077
qo	-1078
qw	-1079
qx	-1080
ra	-1081
rb	-1082
rc	-1083
rd	-1084
rf	-1085
rl	-1086
rm	-1087
rn	-1088
rp	-1089
rr	-1090
rt	-1091
ru	-1092
rv	-1093
rw	-1094
sa	-1095
sc	-1096
sd	-1097
sm	-1098
sn	-1099
sp	-1100
su	-1101
sy	-1102
ta	-1103
ti	-1104
tl	-1105
to	-1106
tr	-1107
ts	-1108
tu	-1109
ty	-1110
ua	-1111
uc	-1112
ud	-1113
ue	-1114
ug	-1115
ui	-1116
ul	-1117
us	-1118
uy	-1119
va	-1120
wa	-1121
we	-1122
wi	-1123
xi	-1124
xp	-1125
xt	-1126
yi	-1127
yn	-1128
yo	-1129
yp	-1130
ys	-1131
yt	-1132
yw	-1133
▁v	-1134
akf	-1135
als	-1136
ana	-1137
anc	-1138
ane	-1139
ang	-1140
ani	-1141
ank	-1142
ann	-1143
ase	-1144
ast	-1145
ata	-1146
ati	-1147
ats	-1148
bly	-1149
bod	-1150
bol	-1151
bou	-1152
cat	-1153
ced	-1154
ces	-1155
che	-1156
cin	-1157
cit	-1158
cke	-1159
cra	-1160
cts	-1161
dat	-1162
day	-1163
ded	-1164
din	-1165
dow	-1166
dve	-1167
eac	-1168
ead	-1169
eas	-1170
eav	-1171
ect	-1172
ein	-1173
eit	-1174
eli	-1175
ely	-1176
eme	-1177
ent	-1178
era	-1179
ern	-1180
erw	-1181
esc	-1182
esi	-1183
esn	-1184
ets	-1185
eve	-1186
exp	-1187
ffs	-1188
fin	-1189
ger	-1190
ghe	-1191
gin	-1192
gre	-1193
gro	-1194
hat	-1195
hea	-1196
her	-1197
hes	-1198
hin	-1199
hop	-1200
hor	-1201
hou	-1202
hro	-1203
iat	-1204
ice	-1205
ich	-1206
ide	-1207
igh	-1208
ila	-1209
ile	-1210
ily	-1211
ime	-1212
ina	-1213
ini	-1214
irc	-1215
ire	-1216
irf	-1217
irp	-1218
ist	-1219
iti	-1220
jet	-1221
keo	-1222
kes	-1223
kin	-1224
lab	-1225
lar	-1226
las	-1227
lat	-1228
lay	-1229
led	-1230
lie	-1231
lif	-1232
lig	-1233
lik	-1234
lim	-1235
lis	-1236
liv	-1237
lla	-1238
lle	-1239
lli	-1240
llo	-1241
lon	-1242
low	-1243
mat	-1244
mbo	-1245
mes	-1246
met	-1247
mic	-1248
min	-1249
mon	-1250
mum	-1251
nac	-1252
nat	-1253
nch	-1254
nde	-1255
ndi	-1256
ndl	-1257
nds	-1258
nea	-1259
nee	-1260
ner	-1261
nes	-1262
nin	-1263
non	-1264
nro	-1265
nts	-1266
oes	-1267
oin	-1268
omy	-1269
onc	-1270
onl	-1271
onn	-1272
ono	-1273
ons	-1274
ont	-1275
oon	-1276
ope	-1277
opl	-1278
opo	-1279
opp	-1280
ops	-1281
ord	-1282
ori	-1283
orm	-1284
orr	-1285
oth	-1286
oul	-1287
oun	-1288
our	-1289
ous	-1290
ove	-1291
owe	-1292
owi	-1293
pac	-1294
par	-1295
pen	-1296
pin	-1297
pme	-1298
por	-1299
pri	-1300
qui	-1301
rat	-1302
rea	-1303
rec	-1304
red	-1305
ref	-1306
reg	-1307
ren	-1308
rep	-1309
req	-1310
res	-1311
ret	-1312
rev	-1313
rib	-1314
rie	-1315
rif	-1316
rin	-1317
riv	-1318
rov	-1319
rox	-1320
rre	-1321
rri	-1322
rse	-1323
run	-1324
rve	-1325
sed	-1326
sen	-1327
ser	-1328
ses	-1329
sse	-1330
ssi	-1331
sta	-1332
ste	-1333
sti	-1334
sto	-1335
str	-1336
sts	-1337
tat	-1338
tay	-1339
ted	-1340
ter	-1341
tin	-1342
tly	-1343
top	-1344
tow	-1345
ual	-1346
uch	-1347
ude	-1348
ugh	-1349
uin	-1350
ule	-1351
ull	-1352
umb	-1353
umm	-1354
und	-1355
urb	-1356
urn	-1357
use	-1358
vat	-1359
ved	-1360
vel	-1361
ves	-1362
via	-1363
vid	-1364
vin	-1365
vis	-1366
war	-1367
wee	-1368
yes	-1369
yin	-1370
you	-1371
ype	-1372
ywh	-1373
▁ac	-1374
▁af	-1375
▁ai	-1376
▁am	-1377
▁av	-1378
▁ba	-1379
▁ca	-1380
▁ci	-1381
▁cu	-1382
▁da	-1383
▁du	-1384
▁ec	-1385
▁el	-1386
▁eq	-1387
▁ey	-1388
▁fa	-1389
▁fi	-1390
▁fl	-1391
▁fo	-1392
▁fr	-1393
▁ge	-1394
▁gi	-1395
▁he	-1396
▁ho	-1397
▁ju	-1398
▁kn	-1399
▁le	-1400
▁lo	-1401
▁lu	-1402
▁ma	-1403
▁mi	-1404
▁mo	-1405
▁na	-1406
▁ne	-1407
▁nu	-1408
▁ok	-1409
▁op	-1410
▁ot	-1411
▁ou	-1412
▁pa	-1413
▁pe	-1414
▁pl	-1415
▁po	-1416
▁pu	-1417
▁ro	-1418
▁ru	-1419
▁sc	-1420
▁se	-1421
▁si	-1422
▁su	-1423
▁sy	-1424
▁ta	-1425
▁te	-1426
▁ti	-1427
▁tu	-1428
▁tw	-1429
▁wa	-1430
▁wo	-1431
acit	-1432
aila	-1433
akeo	-1434
akes	-1435
ands	-1436
anes	-1437
ange	-1438
ansc	-1439
ante	-1440
ants	-1441
ards	-1442
ares	-1443
arri	-1444
arts	-1445
artu	-1446
atab	-1447
ater	-1448
atin	-1449
avel	-1450
axim	-1451
bers	-1452
bout	-1453
ched	-1454
ches	-1455
clud	-1456
ctly	-1457
dver	-1458
each	-1459
east	-1460
eats	-1461
eave	-1462
edul	-1463
eekd	-1464
eith	-1465
erar	-1466
erat	-1467
eren	-1468
erve	-1469
esig	-1470
esti	-1471
ever	-1472
expe	-1473
fast	-1474
fera	-1475
fere	-1476
fers	-1477
gain	-1478
geme	-1479
gest	-1480
ghts	-1481
ginn	-1482
here	-1483
hing	-1484
hort	-1485
iced	-1486
ices	-1487
icin	-1488
icke	-1489
ides	-1490
ight	-1491
imat	-1492
inat	-1493
inds	-1494
ines	-1495
ingl	-1496
ings	-1497
inim	-1498
init	-1499
irli	-1500
ises	-1501
kets	-1502
kind	-1503
king	-1504
lain	-1505
land	-1506
lane	-1507
lann	-1508
last	-1509
leas	-1510
leav	-1511
lier	-1512
lify	-1513
ligh	-1514
line	-1515
list	-1516
live	-1517
llar	-1518
llin	-1519
llow	-1520
lose	-1521
mall	-1522
ming	-1523
nack	-1524
nate	-1525
ndin	-1526
ndly	-1527
nger	-1528
nrou	-1529
ocat	-1530
offs	-1531
oing	-1532
omet	-1533
omic	-1534
onom	-1535
onst	-1536
opef	-1537
ople	-1538
opro	-1539
orts	-1540
ossi	-1541
ount	-1542
owin	-1543
peat	-1544
pest	-1545
plea	-1546
pper	-1547
prox	-1548
qual	-1549
rate	-1550
reak	-1551
rent	-1552
rese	-1553
ress	-1554
rest	-1555
reve	-1556
revi	-1557
ribe	-1558
rice	-1559
ried	-1560
ries	-1561
ring	-1562
rips	-1563
rive	-1564
rout	-1565
seng	-1566
sent	-1567
sest	-1568
sine	-1569
sing	-1570
sive	-1571
spla	-1572
sses	-1573
stan	-1574
stin	-1575
stri	-1576
test	-1577
tine	-1578
ting	-1579
tion	-1580
town	-1581
twee	-1582
uall	-1583
udes	-1584
uest	-1585
uing	-1586
ures	-1587
usin	-1588
vals	-1589
veli	-1590
vern	-1591
vers	-1592
vert	-1593
vice	-1594
vide	-1595
ymbo	-1596
▁abb	-1597
▁act	-1598
▁aft	-1599
▁als	-1600
▁app	-1601
▁aro	-1602
▁arr	-1603
▁bac	-1604
▁bef	-1605
▁bel	-1606
▁bes	-1607
▁bet	-1608
▁boe	-1609
▁bou	-1610
▁cap	-1611
▁cho	-1612
▁cla	-1613
▁clo	-1614
▁coa	-1615
▁cod	-1616
▁cou	-1617
▁cur	-1618
▁dai	-1619
▁def	-1620
▁dep	-1621
▁dif	-1622
▁din	-1623
▁dow	-1624
▁ear	-1625
▁exp	-1626
▁fin	-1627
▁fro	-1628
▁gre	-1629
▁gro	-1630
▁hel	-1631
▁hom	-1632
▁hou	-1633
▁inc	-1634
▁inf	-1635
▁lar	-1636
▁les	-1637
▁lik	-1638
▁lim	-1639
▁lon	-1640
▁lun	-1641
▁mak	-1642
▁man	-1643
▁mea	-1644
▁mon	-1645
▁nam	-1646
▁nea	-1647
▁nee	-1648
▁nex	-1649
▁onc	-1650
▁onl	-1651
▁ord	-1652
▁ori	-1653
▁oth	-1654
▁ove	-1655
▁pas	-1656
▁pri	-1657
▁pro	-1658
▁qua	-1659
▁rat	-1660
▁rea	-1661
▁reg	-1662
▁ren	-1663
▁rep	-1664
▁req	-1665
▁res	-1666
▁ret	-1667
▁rou	-1668
▁sin	-1669
▁sor	-1670
▁sta	-1671
▁sti	-1672
▁str	-1673
▁tak	-1674
▁tax	-1675
▁tha	-1676
▁thi	-1677
▁tho	-1678
▁thr	-1679
▁tim	-1680
▁tot	-1681
▁tow	-1682
▁tra	-1683
▁tri	-1684
▁try	-1685
▁typ	-1686
▁und	-1687
▁ver	-1688
▁vis	-1689
▁wan	-1690
▁wee	-1691
▁whe	-1692
▁wis	-1693
▁wit	-1694
▁wou	-1695
aches	-1696
acity	-1697
aight	-1698
allin	-1699
anies	-1700
aning	-1701
ataba	-1702
atest	-1703
aveli	-1704
aving	-1705
bopro	-1706
chedu	-1707
ching	-1708
clude	-1709
cting	-1710
ction	-1711
edule	-1712
efull	-1713
ental	-1714
erary	-1715
erent	-1716
erest	-1717
fares	-1718
ferab	-1719
fterw	-1720
hould	-1721
icket	-1722
imate	-1723
inate	-1724
indly	-1725
iness	-1726
ithin	-1727
ithou	-1728
lanes	-1729
least	-1730
leave	-1731
liest	-1732
lines	-1733
llest	-1734
lying	-1735
nding	-1736
nects	-1737
nsive	-1738
ntals	-1739
oking	-1740
opefu	-1741
other	-1742
ousin	-1743
overs	-1744
owest	-1745
owing	-1746
parts	-1747
partu	-1748
plane	-1749
pment	-1750
ports	-1751
ption	-1752
refer	-1753
riced	-1754
rices	-1755
riend	-1756
right	-1757
rlier	-1758
rving	-1759
sines	-1760
sport	-1761
stest	-1762
sting	-1763
stops	-1764
umber	-1765
ummer	-1766
upper	-1767
urbop	-1768
uring	-1769
vaila	-1770
viced	-1771
vices	-1772
vicin	-1773
vides	-1774
yover	-1775
▁airc	-1776
▁airf	-1777
▁airp	-1778
▁alon	-1779
▁amou	-1780
▁anyt	-1781
▁anyw	-1782
▁arou	-1783
▁besi	-1784
▁betw	-1785
▁cana	-1786
▁chea	-1787
▁citi	-1788
▁clos	-1789
▁comp	-1790
▁conc	-1791
▁conn	-1792
▁cont	-1793
▁cove	-1794
▁desc	-1795
▁dest	-1796
▁diff	-1797
▁dinn	-1798
▁dire	-1799
▁disc	-1800
▁doll	-1801
▁down	-1802
▁econ	-1803
▁eith	-1804
▁equi	-1805
▁ever	-1806
▁expe	-1807
▁flie	-1808
▁foll	-1809
▁grou	-1810
▁hell	-1811
▁high	-1812
▁incl	-1813
▁inte	-1814
▁itin	-1815
▁larg	-1816
▁leav	-1817
▁orig	-1818
▁peop	-1819
▁plea	-1820
▁requ	-1821
▁reve	-1822
▁serv	-1823
▁sing	-1824
▁star	-1825
▁stay	-1826
▁thei	-1827
▁ther	-1828
▁thes	-1829
▁thin	-1830
▁thri	-1831
▁thro	-1832
▁tran	-1833
aching	-1834
alling	-1835
apacit	-1836
arding	-1837
arting	-1838
asseng	-1839
ations	-1840
avelin	-1841
aximum	-1842
cludes	-1843
conomy	-1844
ctuall	-1845
eading	-1846
eapest	-1847
eating	-1848
erning	-1849
erving	-1850
esting	-1851
fferen	-1852
iation	-1853
iginat	-1854
inimum	-1855
inuing	-1856
lasses	-1857
mation	-1858
nroute	-1859
ocated	-1860
ongest	-1861
ooking	-1862
planes	-1863
ptions	-1864
reakfa	-1865
rectly	-1866
rently	-1867
riends	-1868
riving	-1869
rliest	-1870
rounds	-1871
rovide	-1872
sented	-1873
stance	-1874
strict	-1875
tation	-1876
vation	-1877
vertis	-1878
ximate	-1879
ymbols	-1880
ywhere	-1881
▁abbre	-1882
▁aircr	-1883
▁airli	-1884
▁anyth	-1885
▁anywh	-1886
▁appro	-1887
▁arran	-1888
▁arriv	-1889
▁begin	-1890
▁busin	-1891
▁canad	-1892
▁choic	-1893
▁conne	-1894
▁desig	-1895
▁equip	-1896
▁expla	-1897
▁expre	-1898
▁fligh	-1899
▁infor	-1900
▁limou	-1901
▁liste	-1902
▁nonst	-1903
▁overn	-1904
▁plann	-1905
▁quali	-1906
▁quest	-1907
▁repre	-1908
▁retur	-1909
▁rever	-1910
▁short	-1911
▁small	-1912
▁someb	-1913
▁somet	-1914
▁stopo	-1915
▁stopp	-1916
▁strai	-1917
▁takeo	-1918
▁throu	-1919
▁vicin	-1920
▁wante	-1921
▁weekd	-1922
ansport	-1923
apacity	-1924
cluding	-1925
conomic	-1926
ctually	-1927
eration	-1928
fferent	-1929
garding	-1930
iginate	-1931
ination	-1932
inental	-1933
mousine	-1934
necting	-1935
nection	-1936
ossible	-1937
owntown	-1938
parting	-1939
peating	-1940
rangeme	-1941
reatest	-1942
rovides	-1943
turning	-1944
viation	-1945
▁afterw	-1946
▁beginn	-1947
▁compan	-1948
▁concer	-1949
▁databa	-1950
▁descri	-1951
▁design	-1952
▁discou	-1953
▁displa	-1954
▁expens	-1955
▁hopefu	-1956
▁intere	-1957
▁itiner	-1958
▁overni	-1959
▁somebo	-1960
▁someti	-1961
▁therea	-1962
▁transc	-1963
▁turbop	-1964
▁withou	-1965
ervation	-1966
mousines	-1967
ollowing	-1968
ortation	-1969
peration	-1970
rictions	-1971
urrently	-1972
vailable	-1973
vertises	-1974
ximately	-1975
▁breakfa	-1976
▁capacit	-1977
▁continu	-1978
▁departu	-1979
▁request	-1980
▁schedul	-1981
assengers	-1982
formation	-1983
portation	-1984
presented	-1985
servation	-1986
verywhere	-1987
▁differen	-1988
▁originat	-1989
▁preferab	-1990
▁restrict	-1991
▁transcon	-1992
▁travelin	-1993
breviation	-1994
estination	-1995
▁afterward	-1996
▁arrangeme	-1997
▁transcont	-1998
proximately	-1999
▁arrangement	-2000
▁transcontine	-2001
▁	-2002
t	-2003
o	-2004
e	-2005
i	-2006
a	-2007
h	-2008
f	-2009
r	-2010
l	-2011
s	-2012
n	-2013
m	-2014
g	-2015
w	-2016
d	-2017
p	-2018
v	-2019
c	-2020
u	-2021
y	-2022
b	-2023
k	-2024
'	-2025
x	-2026
q	-2027
0	-2028
8	-2029
1	-2030
7	-2031
2	-2032
j	-2033
5	-2034
3	-2035
9	-2036
